5
5
5
5
5
5
5
5
5
5
5
5
5
5
5
5
5
5
5
5
5
5
5
5
5
5
5
5
5
5
5
1cc
c56
12cf
1119
70c
5a8
1f6
5
5
5
5
5
1a3
1b08
2fd3
2d6f
259d
2d70
3d75
2450
5
5
5
5
5
13b1
316c
362c
1fee
1e8d
3b9c
4794
1dfa
5
5
5
5
1328
384f
2ef8
1b7f
3bd
221e
32bf
2605
5
5
5
5
5
1be7
4648
32f4
155f
1c35
33a4
2d65
ae2
5
5
5
5
5
10f8
381f
38a4
328d
2655
2d86
2283
9c
5
5
5
5
5
5e
e61
1eab
2075
1cc3
28f1
1673
5
5
5
5
5
5
5
5
5
b3c
2328
246c
638
5
5
5
5
5
5
5
5
5
1499
255f
1b85
5
5
5
5
5
5
5
5
5
5
187c
26d0
1226
5
5
5
5
5
5
5
5
5
5
189a
2111
829
5
5
5
5
