a1
a1
a1
a1
a1
a1
a1
a1
a1
a1
a1
a1
a1
a1
a1
a1
a1
a1
a1
a1
a1
a1
a1
a1
a1
a1
a1
a1
a1
a1
a1
a1
a1
ffff
88d
ffff
4e1
1c1
a1
a1
a1
a1
a1
a1
0
ffff
ffff
ffff
347
ffff
192e
a1
a1
a1
a1
a1
0
ffff
ffff
51a
0
ffff
ffff
192d
a1
a1
a1
a1
a1
ffff
ffff
dbd
1f8
0
ffff
1976
a1
a1
a1
a1
a1
a1
ffff
1f09
2a0
0
ffff
1776
9ab
a1
a1
a1
a1
a1
a1
ffff
3db
ffff
eb
ffff
1688
12a
a1
a1
a1
a1
a1
a1
a1
0
ffff
ffff
ffff
1056
a1
a1
a1
a1
a1
a1
a1
a1
a1
a1
ffff
12a8
5f0
a1
a1
a1
a1
a1
a1
a1
a1
a1
0
ffff
1401
a1
a1
a1
a1
a1
a1
a1
a1
a1
a1
ffff
ffff
cd3
a1
a1
a1
a1
a1
a1
a1
a1
a1
a1
ffff
129c
6bf
a1
a1
a1
a1
