0
0
0
0
0
0
0
0
0
0
0
0
0
0
0
0
0
0
0
0
0
0
0
0
0
0
0
0
0
0
0
7f
8a7
b2d
a5a
27e
363
a
0
0
0
0
0
65
148b
1d89
1893
18e4
1f20
2fd2
744
0
0
0
0
0
e11
1cc2
19c9
0
930
1a4a
1910
0
0
0
0
0
b2b
1fa8
1641
0
1b3
1474
1b2a
0
0
0
0
0
0
91f
1fa0
1454
cdb
11bd
19ab
11ea
0
0
0
0
0
0
0
1410
1a3d
1f87
13f7
131e
0
0
0
0
0
0
0
0
0
79
0
12b7
1452
0
0
0
0
0
0
0
0
0
0
621
1398
b5b
0
0
0
0
0
0
0
0
0
0
b6c
1373
0
0
0
0
0
0
0
0
0
0
0
1229
119c
0
0
0
0
0
0
0
0
0
0
0
ef1
be0
0
0
0
0
0
